memory_initialization_radix=16;
memory_initialization_vector=211E110FF0FF120000F10100101E10F1 211F11F022F1FE0F1F1F01F2F102FEE1 FF10E01F1DE0F0EE1E100001F1FE000F 0EF1E1FDCCEEFFE2210102EF1102FF01 F1FEECEE0CEFF1133120FF1111120F21 F1FFDC0DDBDC0E13553110FE0F0F111F FE1DFDC0110E0244333302F0F211F10F F00ECF0DEEFF133224301FF1E02220F1 2EEDE00F11214577753402F12F220011 110DC0FE12457677764321210122F010 01EDDF00411377776526542031130000 02EE01212324567741232411233432FF 11F110141212257631F003123212212F 1F100E3044320455FBACCF112130002E F11D0012110001430B9AAEDE010321EF 1F00BCCFFEFE11251B999DEFFCE211F1 FFF0FBD0DF0FF1231E999DBBDCDFE11F 00FEEFDFDDFFD0111ECDBBBECD0F2F1F 220001E01EEF0F12300EECCEFDF20100 FF110FFFE00E0E2222F0F0FEFF10001F 02000301EF0CFF20110F1FFC0E1221F0 10013202FFFDD0E123F0FF11E1F0100E 110134010100DF120220101310F221F0 0F11030010110ED111012440320FF1E1 F00223211F11EDEDFFFF0123243F0E10 110F10012F2201210EF1132143102120 1F02F0FF1F1F0030FEF2212442F2F1E0 FF11221021F23312F02012232F21EF10 11E02E1101133343212F11F3000E002F F1120F2104445445455132122020E021 20FE2F0F22335544233223120122EEE0 FF0EE0E1001332F00110FFF01FE02FE1 0102EF0001212F2E0F0EF101FF0EF000 EE0212020020FF0F220EF00E0E112EF1 0FEF200F0E1222201022100E02FE112F 0EE0FFF0F10D1F13103F321F0F0F1221 112EEF22121324335241021EFFF2F0FF 110D01F133256676632210EF01011110 11EED11324343635540FEEDF0FEFE1F2 F1DDFF3433425535100FEEDDFFD102FE EFFE1021333224304100EEDEF0E00000 FE0D0F12424032220F2F2EEDDFFF0010 21DD001323133243222F12FFF0FFFFFF F1CE1222220E103200F220F11FF01002 F1E33545221EFF231FD0E121FFDD111E 0FF2554342FDBDE30ECEFFFF1F0DE101 F003453421FCDF111ECBBF0EFDDEE1F2 100245231EDBCD23420DBEFDFDFF1F00 F111420ECCCBCE34732FCC0DEDFF0100 F22420FECCCBAF344532110020EFEEF2 F23332FDECABAE345644132022F11F00 033130F0EEBEED14557665513F300E00 FF134212EEFC0F01457766411031FF00 F024253331120E1246777752031E0EF0 1F2125442132311044576734231F0FE0 2F0332254123331313677765410F1EF2 1F10343215243231325374664520002F 1E220330226323142245426433011E00 FE0F002204465342222524441F1FF101 01EF1E111F214143654241200F0EE00E 0EF2E0FE0EFEEF010EECCBCBECEEF0EF F10EF010FF1FDCEECBAB99DD000FFF0E F0E0E20F0F2F10FEDDFE0DE00F2222EF EEE1FEFEE21F02F0200FFFF02FF0E1F0 00112F2E12EF220F1FFE1111F2E0221F E001F00F111FFF01FF0EEEE0F12F101E F110E1DFFFFFEEEEEFEE0100E102E0F1 01FF0FCCFDFDEE0F0221020FF011202E FEF1DFCDEFF0E022342001F021FF2F10 FEE0FC0DD0DF13245320203102220022 FFEDDEFFFF0114355433220013F0F021 E1EEBDFF0132333662300F100130F110 2FECAC00021376767530210F30F00110 10CBBEFF12245776342331F3212000F1 0ECBAEEEE32447363100032132231EE2 0FFBBFEE31355441FF0E01E010032110 00DCBDF142424532BBCDEE1DEF1F0102 21FEFE2114534560A999BEDECD10F002 EF0FDDF035353562F999ABCBCDE10E12 11FDECEFF21467671D999BCCAED0F00F 0F10CCAFC012557742C9BCCEBBCFF0F1 020FDBAECB00465774FDCDDEEFF10E01 F100DDDDDEC11367763ECDFF01F3001F F212E0FFEBC0F34766331FF0011432EE 0F43F1E0EFDFF13666231F1101F30002 F24422001FEDCD33333101FF0111302F 002221213EFCCE1230E1D0E2F222100F F10112143200DDEFCE0FEE3F1223FE02 2F0110320300DFECDDEF031433132F11 110220132433EDDCCC00333331000F1F F2E222114213F1FDC001112411320FE1 110F123232100F00DF12F321230FE1F0 F0F2011010130FDEFEEEFF12F00F0EF0 0E10121213451132F1021110F0FF1FE0 F0E0F0F220112222331210F1000EEF2F F10F010F1F21E22221F02F011F00112E 2FEF1EE2011F0FF111E1FE1001101FE1 021FF12FFFE00E0F01FF00110F11F110 02FF120F022232312301F1001100F1E0 122F2013313021F1E00F322F1F1F00FE 20F00224214111FDFFEE0E1E110F021F 000232334112100E1E1E1F1FDF10E1F1 0F003142124423211FD00FCEDDD0FFE2 10F11F110F3032120DFFDEDEFCFE0FF0 EF2F10E1ED02121111EDDCEBCCDFEE0F 20E0FFCCCFF0FDFDF20EDDFCDBAF0EFF FE00FEEDECDECBCBEF010E0CCBACEE10 000EDFDCEDEDB999C0564110CFCBC001 0EFD0EEEEFCDC999BF3743201FFDFDE0 1FE033120101CDCBCF275542300EDDEE F21052323331F0DD02375563130EEFFF 0F1022313333201005756454432001F1 0F13133F3003221345666554632200FE 01F2F2EEF022243547766554630101EF 2FEFF0DFFEE0325355766565520DE12F 21F21FEFF002432555777666420DCF1F FF10000F1EE02225546777431FFCC120 1F1201E120F0144442476432FECBE0F1 F0F02200122202120122401FECBDEEFF F0E31013F103102F21121ECDBDBF0E2F 0F0123100422021F20F0DEDEBCCDC00E 100224323110F10F0110EEEDEBDEEF00 000F3352340FEFD0EFCCFEDBEEFEE001 E02123443233EFCCFDEECECBCDCEF001 FF1210212233EFDEBEDBECDBEEDDE10F 11FF1F12012DCBCCCBEBDCCFEFE10EE1 1112E2F01F10FCFEDFE0E0FEF110EF11 F000EFF011101D10EE0001E110F0FF1E 01E2110F21F011FE110F01F020202EF1 2E00010F11FFEFFF11F1E1221F0F200F 000E101232142113324430F2FE1110FF FF01FF222526354434422111200F2FE2 0FF0F0E1021F111325536243F011FE1F 011DDFDDFECECEE023432413011F2FFE F0DEDACCDEDDFEFE011123442310F10E EEFBB9ACEBCFEF0F1F11311241222EFF F0DA9ADEEEF014452122122342410101 10CA99BDECC12646532F115424423011 0FD9A9CBEEFF5775431F003424332FF0 F0AAABEEE13257751EEFEF015443010F 11BDF111422536521DACC0111041200F F10FE04253254664EAA9CDDF2F020001 0F02132542526652FB9BCF00E1142F1E 2113331313235532FDCBACFDE01300F0 10112233214456630CADDCFFDD111211 01102222214246540CDFDECBEFD022F0 F11022323212146441DEDDDECCF11FF0 111F200225021334332310FBBCF10010 21200F114243101255533E0BDAD02FF2 0F1E01F13244111354231FEBBCF23101 110F0E0F03252424435410FEEDF01212 2F10FEDF1131445623332DDEFE0F1012 01F00DDFDF1F2336442F1DDCFE022FE0 01020FFEF0EFEF13311EE0ED2121201F FEEFFDFDEFCDFD1EE0FFEFEF2321FF12 0F11FFEDDDEECCCDECED0F02133202F1 F0020121100FF220110F3333432200FF 2000F12F1132334446634554212F20F2 0E0FF222011254245523420011011E12 EF211F201222021F0020EF120E12121F FF2EE01020F00212FF1E211FE22FEF00 F1021E0E22F1F0F10F01000F1EFE002E FF0F02111F023134221022220111FF1F F2F120111453334457665031110F20EE 0EFFEE1EF11F11133645643032E00F2F 10EFEFBEE0DF0F101113455233F201FF F1ECCABDEC0E1120231122443233FE11 F10B9BCCEDEE03400121222132101222 10EA9AEDFFF257365112330353241021 00C9ACCED1036766411F20F33344010F 1EDA9DBEE125476731F00E2F14311F10 01E9BDFE211667620FCDCCCE1142201F F0FDCF0032522253F9AA9CDCCE12FF21 F101120301522000B999BCCBC0110F1E 01F132F1335311F0B9DDBECDDED1200F F1112200F3240F2EDDE01DFDDDFFFFEF 2022010433413020CECFF32E0E2F01F1 1103302453541F101C001411F1F12101 F122333352431F00FDE11131222201F2 02011335235541F0EDDFFF2230340221 2243342145253211EFFEF00021243110 1F3310432256455311EF011103431002 110200202353552452222FE1131241F0 FE001210302344454120200100352010 0F202ED12F2204122302F21101232020 FF022EFEFFFF010000FFF23212241F0F F2E2F1FEE0DEEDCEDFE2322122332220 210000010DEFBBBBBD0E112532123EF0 1FE121F1D0F0EC0EE110314344222001 011100102121442467676442000F11E1 F0E10021F2243134422123201E120100 21E2FEF1FFF210F102EF110FE11FF202 0F020E11212EF00FF1E0E111111E1F21 1F21F11120F1EF10F20E010FEF1E0FFF 2E2E000EE0EFEFEE11EF1F1E001F0EEF 12E00E1010FED2EFF0EEF00F2E21F012 F1200110E1100133322121101F01F111 1102201003034212140132F010F12FF0 F022200021113323345313003F00E100 0045423131130F324252341210202F00 F1355312212F101E0043553444132E10 F26654235431F2002231234534302F2F F2577444341121321F1211452131FFF0 026644130F111575232E014232100210 034311101FF0367766001F1334243100 2042DDAFDF014677773101E200212212 01F0A9ADBCF13677776FF0FD023011E1 EF0FCBCDCFEE135777610DDEEDF20101 2E0BD9ADFEDD2275764FEEACBBE0F011 1F1CFF0FEF0E1136552DDB9AADDFF22F 0EE0F0002100F20441FECBACDCDF0F20 00FDDF22020F0E0220CDCABCCEF33220 1F00FF2211121EEEEDFCBACEFFF13F1E F10FF30222232FF000EEEDE3121331F0 FE0D100112343FFD0EDD032252414012 1F1ED120323121110FF114464121211F F2EDFE214124442F20212134341131F2 110FE00F201354524032342413210200 0F20FEFEF00464476214130313100FE0 2F00F0EEE2345556654102301331000E 0010100EEF222347756344312122121E EF001EF1FF00002524242F2001112F0E 0E1EFE0FFF0202211F11F20E0000FE00 010E1FE11FF220F2222FF2001FFE110F FE111F0F021F1E1001F01F1111FF0110 EF110F00F1F1EE22E1E1E20E1F001010 0F011F2E2102F10FF2F0100F10F0E110 2F0E0EF2FFEF1220E1EF1F2EF02E2211 EEFF20FE20020E120F1EFEF121E012FF 00100EE1EFE112FFFFE10E0FF1E110F1 1F1121F0111EF1F0122000FFF1101F00 1F0012FF0000010020112F010F0111FF 010022E2FFFEEE0011E11FE1FFE1011E 01E2F1E01E1F011E1FFF10200F11F2EE 0F0111E2F11E0112F01E0100F0F01F1E EF1F0F20EF1E0100E0212F1FF1E2FF0F 020E21110FF0121E1EE0E0E02F1012F1 0E0110FFE0101EE11EFF202F0FFE2F0F 2F0EF021010E0EF00EF00000E0FEE111 022F1E0EEEF0EF2E11FFF001EF101100 E0EE2E0F01FFFE11FF102F210F01E222 01E1112111E001F20E20FF02E1120000 2201F00010F2FE12EE2F1FFF012F1FF2 121FF000E0FE0FFFF2EFF11E02F10010 F00211E1F1E20E0F0FFF1EFF000F0FFF 10FFEFFF0EF110210110FF1F002E1202 1E1FF1F10F010FE0111EF0F201120F11 FF11EFF11F0F00F100EE0020FE0F0F20 F22F0FF1000EF100FF1F0F020F1211EE 1110E11010E10FFFEF1F011EF2F22E00 F0F2EF1FFFF110E211EF2F0101FEFF11 011E21FF111FF1EE00E002FFFE1EF00F F11E2EFE1F00FF11EFF010002FEFFF00 1011E1101110F2110EFF1F12EEF00F00 F10F112E1F12F10EF11F1F0020EEF020 E01EF0EF0100121FEEFE1EFF12EF00EF 11F01E12F0010FFEE00111010FE12E2F 0FFE01F000211F10EFFEF1101EF20102 01F00EE00EFEDDFE0DEDD10E10200210 1122E0F0FFFFCCBCDDEFFEE0E110F0E1 20EEF0DC0DDCEEFEEF111F0F10F00111 0E0F0FEF01DF01F1111002F1300F0F11 0E0F0DFFFF01314431202F223310F02F 02FFFF110010321421224421141FF0FF 00EFDF202F23223352011FFF113112EE 0D0CD102F1202FFEEFD0E1000022F0F0 0EEDDF00331FFEBBEDECE0E111201DE2 00CED0123312FEDC9DCCDCE02101EF1E 11DFF1232451211CEEE1001F2F011F0F 0EEFF030345542543112F22F0FF0EEE0 11FE0E103233657775432221200E01FE 1EFFFEFDF1255777776312321F110EE0 1100DDFECD22657777652110F2E212F0 21F0DBDCCD112667776201201F202F1F 20EEECF0E0032546774101FE1E1E111E 01DEED0FDED010133312E0FEF11F222F EECFDEF0EEDE00EEDDFDEFEEED00F1F1 20FDCDE1F1E0F0FBBB99CCED0FFF11F1 011CFFF0F01F1FEBA9999CFDEE20230E 200FECD111F01FEBCA999AF11101110E 21FFDFF0212210EFCDABACF11022420E FE0EDDDF1322020E0ECDCFE231330FFE 101E1FFE21443F020100011022011101 1F02201F4222033312322F2113001020 100EF00135313FFF0024223F21F00EF1 F2F00F002302FFEE0E1221FE1F10E1F0 F0221FEFF1F1FCEFEEEEF1F1E00F0F00 F21F1EFE0FE0FFFEF0E2E00F01E00110 0EE1FFEFF11F2FE10F2E2F0100011202 02FFF010000F120EF10F11E21021022F 00F10EE0E00D010EDECE01E2E10F1FFF FF2001EFEFFF1010F0EED0E1000F1F10 012E1EFDEEE21335341101F01010020E F0FF2022214236363312243232022F10 1F334411122201021124262133FE0FF1 112454554022ECDE123153654422F11F 2F354665440FCBA9D0123547463122F1 225475635522DDBAEF223637634411E0 136533554341F1FD0001144445452001 0145430143343231FED0F120314432F1 21100DEFF1042444211FDFEE1F1211EF F00DCBBDCE112443111FDBEBCDF12020 E01DCAAACDF034212310DBECDDDF01EF 10FEC9ACF0DF0321242FCBBDBBCF0F02 E20EC9BF00FF1202430EECDCACDE11F2 02F00EF010112423431DECECACFF0211 E2001D1201034544432DCBCCDF021010 F132200023222544731FDECE12220E2F 2232431000FFF425542CBBF12214300E 0F2142032F2FF203150FD01155523211 FF024420F02D1110021E103654430F02 EE2032311212FE0DE0F0F345551322F1 1FE031323230100FFDF2313443441F2F 210F0030323431EE012115442124F2E2 01E01023333434114322414321231E1E E11FF0F113324564234233320F0FE1F0 E21000EDFEFEF2234442121021F02010 2F102FFCCBADFF01FEEFFE0E1FEF1122 111E0EFE0EED0DE0EF011F0FF1E0F01F 1EF2FFFF1112212F221000F0E00F00F1 0FF1E1F000F020FE1F110F0FF1EF0F11 11EEF1F0FFF1EEF100E000FFF202E1FE 000EFF111EEE1FDFEE0E1EEEEEE0FFF1 101F20DDEFECEEDDBDCDDF01F2222E11 11EFE0EED0FCDEE0FDDFED0E110F00F1 FEFEF33010FEDF110EFEC0FDF012E11F 0FF214331FF11E0FE11FEFF010101EFE F0F0321212110000FF1FF0FEF0F02E0F F1102122321002EF01E10110FE0F111F 010E2103021221EEF300F02F2E12FFF1 E10D0F001312020D0F0301FF0FEF012F 11E0F0211F312031114344110100F102 0010F11321232513244455230201F100 E0ED123314464313124554564202F1F2 FF101034213474432012347653431FF1 F20EE122423667541EDFF253434311E1 F1FD002242433722FEBDF112410310E0 0F0D01E000344442020EC122131010F1 2FEEED0E21002465501EE1003101F10E 00EDDCD0FFD1024434210211EDEFFF2F 010CCDCEDDEFD033524F010FDDE0E1E0 0EEFDDEEFDAAED13420001FEFFDFEFE0 000FCBCFDCBBCED0EEFEBCFEBCDC000F F1EF000CECDECCED0DBDADDBDDBD0EF1 00010FFEFFDF0E0F0FDFDCD0FDEFF0F0 11F0F0E1F010200EFFEEF1FE0FFC1000 E10000011F010112FFFF1100FFFEFEE0 FF1F010220F253410121F0200EEFFEE1 02FEE2F10021310EFEE211FE11E1FFEF FEF10F020220E00ED0FEF0102F011101 2111E111121FFFFF32F112F1F10E0F12 01F2E12E12F1FE210000F02FEF2010EF 21F1E10E2FFFF2F2FF1F2F1FFE01FF0E F122F11F0000FF1E210002F11211001F E0F0201E0DFFD0011FF0011FFEF2E100 FF1EF0001EFD0FFF211FEE000FF1000E EF101FDC0D0E113142131111EFF0110F FEFDCDCEDE1233034032031012021011 11FFDDDDF1EE2F220F31222232F11001 12D0CD10F2010F12124314332101FFE1 FEED12203453020F032556523433102E F1E1101335246442411443666444020F 2000132256567754641341254252200F EE113552474576774512212132531211 00E25453266466544411FEE13131410E EFE24112211410FEFEE0CDD0EE003202 0F133310E12FFAABBBEDEFDDCD013211 2100232011F0EBA99AED0DCDFEF11FF0 0F0244102220FBBA9AAEDEFFFF0F0FEF 2F1235334230DDA99ACDE11D00001F01 01F432444552FDA99BABE0E20020F202 01313341224530ABBCBCF01103130F11 1131233043553FFBCCCD0E122431110E 1F1213311144341F0EF110F223232110 22F0F200FE0241111243421332421F2E 20001FE1DD101033333353144134311F 01F2EEDDDEEF02132156531324321100 1F10DEEDEDF10123453423443230FFF1 120FFEEDECE13244532312142110E1EF 2000EDDBBBDF12354455332211002FF2 200FF0EEDEFE245462241123231212FE 0101E0FFD0F10345432422103FF1E01F 1F1F21EE0F123322333423311EE0FF11 F10E0FFF2E11000213220F11FF0EFF02 0FEF1EFFF0121202210F112F02111100 02F110E200101111EEE10FFF0101E1F0 011FFE00DF00EDDDFFE0F01E0F100EF0 001011E00001F0EEFEEDF0F0EE00101E 0E2F0011EDE010CEEDDF110F2E1F10F0 E221331110F2E11DEEE21322F12F0F22 2233121002F10E21FF2131401FE10F0F F0433312022210120233333330F1F00F 033543201020F110114314110010120F 1377533421201FFF244532330F001010 206541430301FF0E10255412FF0F1F01 00450F10E0001EFFE055641220200F0F 1243DBDCCD0010ADE254343F00F0F022 002FAAB9DEF030CBD336203EE000F12F 11FD9A9BCE0110DCF1244010EEF0E010 021C99CDE01300CCEF434200EF11E02F 002ECDCF024620CF0145643F0EF1E010 0010FFF01167330025302223F22F0F02 113F01000445632241322031202F0F12 F24330F001134346520DFD1241310021 034213FFFF144676420CDCE242012E11 F10523F2EDF0326641ECDBE152311E1F 21322331E0FE1014210BBDF134012EFE 12034320310FEFFE0DECFF10031210F1 FFF1143440000FFDFF0F01100EE0F0FE 0F0343464122FFBFD0110EFDFFE2F11F F101314465120EFCF1F10FFEED1F1FF2 F000203344311E1DEE21100DCEE1F0FF 12EF0FF0213123431112211FF1F1200F 1000211FF00F1211334113201020EFE0 F111112EFFE1FF12201F10EF22F202F1 EF2E11F110101011E00FE01FE2F02201 2FF1F02F22E1F2E2211211F2112F0FEF 01F00EF12F02F00E2E0EE00E20000EF0 2F102F0F1F1F0E0F1FEEFF12F1F12021 F01221FF2F10FFF1F01E10021000F21F 11FF11F1EE1F102E11FE0F20F00001FF 1FF0F2F0FFE0F1100202000FFF021100 F1FEE1F100F2F0F00EF0E10F200102E1 02000E1FF10E110EFF11EFE10E111202 E1210F20FE1E2EFFF0FF00F0E1F221F0 1F1EF2012F1EE00E1F100012110E0002 F1F0FE01FF011FFFF120F11F0EFFE1F1 0020FE1100EFEE2F11F010F02E01F11F 100F100000F11000000EFE2F00F1F011 2000001E0FF00FF00FEF20101001F1E0 1200000F1E0FF000F0FE0000211F1102 00001F01F1F101EF12010F120F11EEF2 F2F0E102FE0E110111EF00E1F1F1010E 10E021E21011EEFE111011FF0F2200F0 212F0101FFF00E2101FFF0F01FF000F0 11220F2FFEE11FFFEF102EE2012F0EFF EE10E00F10001F01E00E011020002EF0 F201E10110F101EFFEFEF02E110EF101 00EF11E00E11F021F0F01E110122F0F0 F11FFF21FE11F01EFE101F01EFE11F00 002F11E012E211E1101210E0F1100FF1 0FF1220FE0FFFF12E1000000F1E11E00 EF0020E120EEE1E010E02F0200012EF2 2020120FE10F00EFEF01F12FF0211221 21211020F01FF111FF100E01020E10FF F1F0F1F0E110010FF2EFE1F12E100021 1102F0FE111E11FF02F1F0111FFF1F00 22E1EE1FF1FF0102EF0FF1010101F21F 12000F01E211211000FFFF20F212F0F0 100E0FE1E0010110E00121F0E1EF11F2 120FE1F0232F201100F2F210FE001EEE FF0110131211201FF1D1F10101F1FFEF 0023253145411EFCDFCFE01F1F1F0102 E1223453131DFDDCDDDF1F1F1110221F E0F342522FFEFECBFDF10110FE11EF2F 1003641010EFECBEF0FF2110EEE1E110 F224100FEEFFAECDCCE122FEDFEE02EF E1353E010DEFDCCBC11FF20EFEEF0F21 00212E00EEEFDDFEFF130F30D0DD0EF1 0011FFFCDDCEEF1F12444331EFD0E201 2FFE0CCDCDB0F220344536223001F10F 01FE0EDFBEEF435324767654323F1FF2 0F01EE0ECFF05532343476777322F1F0 F10F212021235452F03377776752FFEE 1DE221433544353FFEF444444343FF20 0F0003312345553211015334332F10F1 FDF0020322512644310F223332F01F20 1EEEFEF23231137550001F111FFCEE12 11EDFCEFF11F2447331FD01000FCF110 1E0EDEF11FE12255541EEDCFDDDCEFFE F110DDCFFF2F1145412FDEBCEDDCEEF1 2FEFEDDDFE1F1125350FECBEDDCCF01E 1FF0FF1100112434352FFEDEABBED1E2 1111F0EDEFF23102012F01ECDDED00E0 122F0E110102222F1011F0DCBC1E1021 2FFE0FF2222211EFFFDD0FFDDDF1F002 01F010F211FE001ED0F0F2FF0FF1210F 1F2111F0F1E00FF10E0FF10122022F1E 1F0002010FF00F0102F10F1E00FE2E0E 1FF10EE1F2E0EF0E0F2FFF2F1121EF2E EF001001021FF1201210E10EFFF10FE2 011121F2F0E001F1F2001E2000EE01F2 12FF1102FE1DD0E0E0E001F2EE01F011 E2E01F00EFFEBBAADDDEEF0E12F101E1 000F0FE00FFCEBEBBCDABBFF00E0100F F10F001EFDEEFEEFFEEEEDBFDED1E010 101FF001FE0011F00E0EFFEEEF0D11E1 1120421F2212111000000EFFCED0F1FF 0203532014443532401331FF0DCFF1FE E122644111453122233444322EFF0012 0EE44554533330F14466661122FEE2F0 11F17645235230EF2577664511112101 00F1464756561FCE2577767462420010 FEF3557665633FEFF6677777553F02FF 1002667575633EEAF157666777612E00 FEF1264554332EECBF25444677532120 0FE1453431254FECBBE122443542F0FF FF02204F102431BCBCF13335352101F1 10EE0EE0EF0542DBCE132424112DD1FF 1EDD0FEFF0F330ECD133456220ECFFFF 10FDEDECEF100220F23647330DCDBE0F 2F0EEEDBDCCDF211DF25532FFDDCDF11 F1DF0CCDDDFCE21FF022211DEDDCC0F1 0FF0FF0FECBCCFF2F21010EDEDBDBE1F 111EFE0EDCFFE1114432FDEBECBCF0FF E0EFE0FDDF0EF02333230CEFEBECE1E0 F11F000FFFF1213545521FCFEEBCE02F EFE00102F012314573510F0DFDEFE122 00F0E21232222231432110FEF0DFE0FE 00211201201454211022310221F1012E 1111F2F12301132313141101111F0F11 F0E0100E20120001F2F00F011F010EF0 F21111010F0222FF1F110FF001F00EFF 01120F01FEFFFF0FE2012EEFE1E0101F 1EE1FF11020211F00F10000EE2F10F22 01111102012F12F12FFF1201F2F1101E 0EEF0124214233233212010F10FF1020 1EF134454435134300223F12011021F1 10133334320F0F1DEFEF0212221110F0 F201343311F0FCCCD1F1220011FFEFFE EF3223410DDEDAB9BEFF321130FF20E1 0200231EF0FFCA9CDEE1F031210F201F 2F32121100D11FEEDFDFEFF2FF1F2012 FFF2E11CBC002420EEF0DEF1F0011EF0 0F01FEEBDAEE25220ECDFEED00EFE1EF E2FFFDCCDBCE21210DEFEFF0DD012F10 EF01E11ECECE0540FFCFFDFFECFEFF2F 211F2FF11EDFF540001FE0E0FEF00100 0F123113300F14532220E13FFFFFEF02 1F204122311E17774310110310FF1210 1003101202FFF3777541222021FF2001 F0242323221E0577742F0F2321FE0121 F02322231E01F1577651F011101EDFF1 20040110100113477661FFF12FFEFF10 E1220211DD1F134775564F0E1DF1F1EF 110231ED10001245645432F1EF0DEF11 0F1F110F0F213233334542110FFE0210 0E100F012020230FF121201F1F10E101 211FFFEE101041FEFD1EE00F1FF21EFE 20EEEFF0E0E132FEECEEEFFE0E1FF2FF 201EFECFFEFFED0FDEECBCE0DE1F1E21 FFEF0FDDCDABBBCDAACADEBDEFF12010 02001F1FEFCFDEBEDECDDE111101F022 E0F00FF10EFFE11F012EE22E0101F12F 0E2F0F00F00EFF0211E0F20022111F01 1111F1FF111FE120FF2F12EE020F01F0 110F1FFFF10FEEEF0F111F11F00F0220 FEFE11101021E0F11E2F1F0EF0110F10 E12000D1DFF1100F0FE0112F1F2E01EF 1E00FECFD0233323F3220E1EFF12001F 122F00DFEF02254402100012F02001F0 F0FEFFF020266456231421211010001E 0110120001445656541143211EFF0F2F F2041322435423113211132F1110F0F1 12145543653401FF00232433100E0FF0 1124425557440FEFF03314412000FF02 F12455355443FCBF211231243FFF1F11 F01235342551FDE11345431132010112 F0F242012131FC023555334112211E20 200123000121FCE213673110020EEE12 E0FF01000F031DC024666101102F0010 F01F00F123320DAA0244231001F0F122 10FF2FE10033EDCBC014512FFFFF0F01 1EEFF1F103230C999E121321220F2200 00FE103021443FB99C2234111303221F 0FFDEF3313451FDCCC11124142301011 0FFC0121315332DBDCF112541430F1FF 10FE0112331320E0001F214233310002 0EFDEE10211221221FF1020211100102 EF0FF00DE20F0234462212F010F0120F 01F1E0E0012013376764211F1E01FF11 12010E21FF10F256673212FFF01FFF0F 2120202F3200103657355030EFF20202 0202FF2032311301123111E0F01E010F FF010E22E01F0EFF0FEF10F1011E2EF0 1FE1FF211F21EFEFE0F1F2E201221F02 2110E200001E1FE0F1001F2FEF0FE11F F0011001FF212EF00001F02F000E2FFF 2110F20F212EEF0121E111F0E11F100E 0102E22001012FF0FED1F000F10E0F00 0102FF000011DEF0DFCDE0E10EE20210 102F120211EDBBEDFFECDEDD0F000EF2 F21FDD0F02100111EDDDDDAE0F00E1E1 F0FDFDDEEF1F033320CDBCCBDF0F11E0 F2EFCEF013236777520FEBBCC0D01122 0EF0FFE12F13677765420BEECE01FEF0 F1EEEFF10F104677672330E0D1E0FF0F FF10E1120F0035776434310300FF1122 2E01F0102200F377543012242302FF01 1FFFF231130E346740E0055414132121 F1F00F32330E24775DCCF35445240E20 EEEDEE10033125676E9BCF2133222EF1 F00EEF01F21003462199CE0FF33201E0 E1FECEDEDDEF113321E9BDFFF2011021 2FCBBDECECFD102322DEDDCE0FFEE02F 000CAEBBEEED00233300F00FDD0101FE EEEABCDB0FE0F2236420F0FEDD000FF0 EE0EB9EBFED0D102653FE0EFCCDDEFF2 F0EFECACDFF0E012450FEFEFEEEEF0F1 0E0EFECBCFCFD1011230F0FEEDEEDE12 10F1DED0ECEDDE20031FE1E000DE0F10 1EE10EEEDFFF0F02EE1FF10100E000FF F10F00E1EDEC0E1F001E100200F10F11 FFF1F32320EFE2FEFEFF201F001EE0F1 FE1EF133241121FE01E20110302EF121 02011112456767544522344213F20EF1 1F1F12022415654656432331FE0F0FF1 1000FE1200221F2F211210F211FF0011 00FFEF1200F1000E12F0F1FF12E0FF0E EE0EE1F2F0FEF00FEF0F111011E21110 1F011F2F10113322F23FF0110FEF211E F1FF121010122543353410F1EF00FFF0 E00F0EE0224255565653655322FE1FE2 FEEFE0EF24226553455443613211E01F 1F11F1E00013454445242524210112E2 01E0FE101F32323352332123222F1110 F1EBDDFDF1FE100110FFFF02100221FE EFEDAFEF0FE01E02FE001FEF0FF12F12 0FB9BFE1110EF00CDFCDE1F010021F01 FFECBDEF03301DECCDDB0EE1111110E0 1FEECF0123210EDC9CACFEEEE10EEF0E 01EEE1F432221EDDDBBDCFFE0DD0FEE1 10F203111313F04110FCBDCCFDFEFE01 1E131F0110413464752110FFDDDFE011 0011EE00E2F33447775331EFEEF0FE01 E12F0FCDFF03126677754012122FF2F2 2133101FFF03233777776444100FF11E E042210F00134366677754420010311F 10341332124133313656444303032001 E2145324444324221465452200321001 1F14125344547543134655121033200F EF201333657444531220231141422FE1 11102124374364201211F1401232221F 010213433354313310F0000211323FEF 20EF211332343220E1F2E2310102F100 FF01FF234352EEFD10E0102F0FE2F101 F11F220F0FF2FFFE00EE0CE010101002 11110010011FCFDCDFDD0DDCFD000102 F01FEF0E0E1EEDD0DF01FD0E0FF00FE1 F0EFF2F102E0EFE0EF01FFE2FEE112F1 2F20EFF12EF0FE01E02F1F221FFF00EE F0222FF0F10E0EF00E0E2100F0111200 1F0FF0FF00F020EEFE1F22FF01FF1000 1F1F1FF12F200F0F0110E1EF1F11211E F0F10021122F0FDFF1E1E122F10F0FFF 00F2222001EDEEDFECD01101F001F112 F0010221FEEFBCDDDCFEF02333F1E21F 1EF0012F0F0EDDDCFE0E10F41120212E FF1FF0310EEFDABBEE0FFE3012101F12 FEDE0F020EEECACD002E0EF1F0011202 FEBBDE00F1FE0DBDEE20FD00021010E1 0EBCBF1E110310CDE210FE0D010F10F1 FEDECD11023523FDE1122FFFDF2FF2F1 000C0121113531EBE230221EE110FFF0 FEFF10124254452CCE11200121221101 01E130432647732DDE1221422301E012 20FF05257566572EED1143674203EFF1 2022235577776735FF10543773420F12 1EFF01246677657530F33435533F1E1F 02E1212445656776600013356220F101 1110E1010424456631DEE002001020F1 10E0FEEE0001336610CDCFEEEFFE2211 E111DCFEEFE115631FBABDBBEFDFEFF1 FFEEEEDDDCFF21440DE9BBADDF0E11F1 122F0CCDECF01232FEEDBBECCFF01FEE 1FFEE1EFFDEED0F0CDDDEEEEDFF10012 F0FFEFEDEDDEEFDDAADCC00FE1E02EE0 2001EFEF000DFFEADEBDDFF0F1222211 2EE121100E00DFED00F01023303112FF 01F21EFEFFFCFDD0DF0F2110120F1121 2101EF11EFFDFD0EEEDE0FEF0F002121 01211F1F02FF200110E0F2102E0210FF 201110210F102E211F11121F1FF1F1FF 20FFFE1000FF0112EFFFFF11F111E1F0 021E0EED01D0DEFFCDDDE1EE2F000001 FEF0F1EEDFDDDDF0FDEBED11EFFF0FE2 0011E0FF0E1FF1132E0FDEF1E21FF0F0 F100F1FFF1F202241100F012F0222E2F 10000E11FE0EF1F100001E202001E1E0 0EEEE01FE222F0D1F0E0F121220FF0F1 11DADFE0101300CCFDF0124112410FF2 2DEACEEFF043320FFF0F011224331000 EEA99ADF01667621FEEED1E0422530EF 2EBA9ACD146777712DEFEDFE0122102F 2DEBCAC014777754FFE0FDEEEE023201 EFFEEDDE214777730FF0E0EFDF0310F0 101FEEE0E1457740E0CE01110E01122F 2F0F0FD11127775FFEEEE11EEF10FF01 E01E10122136676FEEFEEF201EF3212F F22E0E00145536751EDFFF30F1F0F1F2 11EEEF10034355554F0FC100F0F320F2 EED0FE002F12024640EEDF1FFFE020FE F20CEFF1EEDF01343FEBE0EFCCFF1F12 2F0DFCDDEEDECF0420FBCDDCCCF1FF00 001CEEECEDBEFEF22EECCBBBBBE1212F 21FFFFCDCBEDEFEFF0FDBDDCBD01F02F 0F00DBDEDFDF220F0F0EED0CDFE11110 F00EEECDFF0F2110E0E1FFFE00011F00 1FFF1F0FEF1235420FFF001000F11101 F00E1100EE1124230100220122201FF1 FF0FE1EDFFD011110DE011012032022E 2110FF1000FEFF1FEFF21320312F1201 F2022010000210010213322FF1E20E10 F000F12F20F03F01010210F201EE111F 212E0F112FF122FF2FF01E1200FEF11E E1FFFF0EE1FE10FFEE11E110F1EF02E2 122FF1101EFDF0C0F0DF0DF0F0101F0F 021E01F00EF0FED0D0DEFF111FFFF2F2 F1FE1EFFEEE1F0FEF0FEFDFFEFF21E20 011121EDDFCBFFC001E110000F22F01E 02322FEF1F1F0122121221E11022010F F22222EF0F031F130320120F122FF220 011512F3100111343243313F0200FFE0 EF54324421332224352413F00F01F011 104434434331224125333321F21E2000 0133311241242433533465322F12121E F231F0DF112465553353333213021E10 E100CBBF111345667745766311311111 100DBBDCDF255677756563564341FF1E 11EBCACD114256777645625234111222 EF0FBBD00254255741023200F10121FF 11FCDF0020442242340FF0D0FFE10F1F E00FEFF0FF1334312F0BBCCDEFF2100F F0FDDFEFE12121110F9A9CCCEFE010F2 01CFFFF10F0F3221CC999ABEF1FF01F1 F00FC00E101FF01ECBB9BCE03F2131FE FF10FFE11F2FE01FEEA99CE0F0022E02 21FFF0EFE1FEFFFFDBACCEE220303011 0100EE1E0F11FEFFECCCCE1FFFF111E2 00F00EEE0FFFF02DFF0F1F11001221FF 0EF100E21F12110F00F2211FE20202F1 F2100F21022332222222420F111301E1 22F11FF33144552343344334320FF1EF 20F103F043535547477745512FFF0F0F 021E2F21F2121211223400322FF10022 120022F11000101100E10FFFFE2F011F F220FF1000FF1E1F210E00F0EE0FF021 01F1F2EFF2F2EF2122FFF2FF2E20000F F11210FF2210021233030F200FF02110 0E012123322013022F01120FE2FF1011 E1F20243433423300FFE01E01102F000 0120322465244422120FFF0212F1110E F00222332312F1E0DEFDE0002FFE1F11 00F11211022FF0DCE0C001E11FF10211 10FF20210FEBDCB9CDDFC0F212FF211F 1FCF0F2FFFCACCCB9BCBDFFE001FF010 0ECE00D00EFEEDCADBAAC0E0EFF0FF00 FEBC0E10E1DEDD11FFECDF0FEF110EF1 0FD03022F000F02434FE00122001EE02 00E2463101EE2435352313323F0FFE21 E11237560F1114337530031141FE002E FF04767320FF24223642234432FDEFF1 0113676521CE056353430F31131E0100 ED01242111DE133333420323110FF1F1 F001132003EE026444422011120FF21E 00DDEF122000E14332446240E0ECFFF0 2FDDEDEE202100225334531EFEBDFF0E 0EDDED002F22F113335355FFDCCD01F0 0FEECFE1E1212111345642DCDDECD020 210CFDD0EF32344542322EFFDCCEFEF1 02FDEECED1043454335430EE0DED01EF 11FFDCECFE1333655522E0FEDFEDFF02 1FF0FCEFDF0F135533101EEEFF0EFEEE 110FEDFFF010112302FFE0EF0FEEE11F 0F00E0FFFE0E0ECFCEDDCDFD0EF0E110 2100E1E00FCDBC9AC999CABEEE10F010 E11F01E0EE0EEECADCACEFDF1E20202E 001100F1F2E1E0102F101EE22F011102 21F2E10EF21FF2FF0101E00F2FFFE01F 0FE1010FE21FF0FE00FF1EF1E10121F0 F211FF1E00EFFDEED0F0FE020F0FEFF1 101F1EEFFFE0FED0F0101000EF0F012F 02EEFEDDDEEDF0F120221F221110FFF1 0F0FDDFCBD00011012121432210F200F 0E0ECCCDDF100122011033411000112F 2FEBEE0F001564443321231114002122 0DBCEF1EF14364624434043431102000 FFBBDE0022556655452132123331111F EFBAAF122566312133230000323000E1 2DA9BE22665760DCD10F0F002010010F 1ECDF32555673EE9BE0EFFE0FF0F02E0 11E0F46766643DBA99CEEE1DFFF0F10F 0FFF3346677720B9BBB000EEEDF0F21E E220112463764EEDABDEF00200F2FF21 1220F01133674FFECE014415122FFEEE 222222F02257501DE0124544543111FF F1131E112257661103455777644221FF F133220F11256641044445644552E0FE 204120020F34554124534535414102F0 F233212E0F112321F22202031113101F 1F200FFFFF0FF2132ED0FFF01F1320F1 F0F22010E0FDE0001FFEDFED12221F01 1F1330001FFFFF2021FFFDED0030FE21 EF2210011001FDF1E0210EEFE112F02E 00FF1110320FEE1F1F11EE0021E0F211 11022122011F0EFFE211F102FFF1F101 FF2E2022220222F0F2300032002F0FEE F00FEF1102002410322343121010110F F12E01210F0130021212311F10110FF2 0F1201F0F01FF010121F1EFE1F1FE2EF EF1F0EFFFF202FF0102FF0022110F1F0 12111000FF010FF212F000200F12FFF2 1FF20E2301322132042230112F2F00E2 F0122322144211112121231F2F0FF11F FE0211121102100DF001EFE11E10F1E0 F0021301020E1F1FF10EFE00D0EF210E FF221202FFFF2100E1FF0DEFDDDFE0E1 1F0001F01E0F2231020FFFDFFCDFE0E1 00342F1DFFFCF034534F010FFDFE01F1 0F031E0D0DDBDF022323411EDFFFE00F 0211001EDFDB9CD0125644311DFF0FF2 FF1231210DDA99AB02667454110ED0F1 001131201ECDCABEF2367666421DE0EF 0010221123101DF12565775433010EF0 F1FE2442334414433523343431120F0F 11E1FF202333334545521001210FE200 F11F1F0F00135666333FEDC0E21F1011 FE0F00FFDEF135666661FDFDDF0FEE11 0010FDEECECEF45554441FFCCEDFDE2E 1EDFFFFDDDFE3131465572EEDACBE0E2 1EDD0F001DEF021F27677330DBDDFE12 200F1E1E2122131035677531FDBBEF10 0EEF10FF3220100211652220DCEDE1E0 1FF00100F1FF2323052401EF0CCCEFF0 FFE00FF1123222441302E00EDDFCEE1F E011203102F012344411DFECECDEF12E 1021213120FF0F121F1FDBDFEFCED200 0112F0043331F01001DFBECDBBCF1F10 100020211522312F01EFF0EEFC001F01 F1F0122342244F22E0DF0DDFFE12FFEF 002E1111F120EE20F0E001000EF12001 FFF0002E0F1011FEFFFE1FEFF2F1EFE2 0110EF01F10FFF1EF11F2E2EE100FEFF FFF100FE00F02E21F112FF01211F2110 0101EF210213131322322002201011E2 1FF012133563332400323F21F1020F21 F1F001443123102E02220F00E222F100 FE01000323100EFFDEE01FFF2FF112E1 F11FE2E103320200FF20FF11FE0EF00E 1100F02100134313111F12E00D2EE001 FF011E0FE20253361010FEFFCDEEE011 1F3021DF0E2134311EE1FEFEECDEF0FF 1233200EF0EFD0111100F0DDF0CEE110 FF231F0201FEFFC0111FF2FE0DECD0FF 00331F1E01ECBFFF124300132EFDD11F FE044000F1FEFE0357664113301D000E 0101232FFEEEE03367765321422FDE2E 0FE2342F101EFFF45577654253301100 1FD1434122FF1DE1137765324110F111 10FF234011F20EEEE135631012FEF00F 0FEF20102312FDABEE2435FF200EF0F1 00FEFF1225300DC9ACF31100F0101F1E 00CEF112153310BBB9D101FF12F00F00 E0EFF23133674F0CAB0354112000FFFF 0FDCE00014573111FF02221122F000E1 FEE0D0EFF2356553344431221F2E210E 2E1FDFF1FE34433545434201F012FF22 F0000EE0DEE113355535020F10FE20F2 F0E1F10FE0D0001444441000F1F00020 2FF0111F1DFDE00F2330002120F21FF1 F0011FF1120F0F10344343301102E101 020F02F212F100FEF311000011F11110 1F2FE110FEEFFD0FDF100EF2FFFEFFF2 2F0E2E10110F0F0F0EFF10E11000F212 E01E2EFF10FF111F210EE1EF01EF1FFE FFE2F1FFF10FFF10112FFF1F0F1F1001 EF11112F0FFFF101F001E0F1FFF2FFFE 1FFF00FF0EFFF112120321FEE0021021 E2F210E1E0321430110F10FFFE1021F0 1F0F31F30F5335241121000D0EF20221 01303F012354365124122F11ED0010EF 2F2432303123354243520F0D0DD0EF1F 1023542145333323223410110FD0F111 1F667543235234445364340F0FDF111F 136777745313221436774221E0F0FE11 123753341201EEF314744443FFDE1FEF 11343200E0FCAACF225651200EFDFF01 FF112FFEFECBCABDE256302F0E1E0000 11F231DCEDECBA9DE12231FFFDF01210 1F202110EDBA99AAB14352000EDF0FE0 1000321F0EFED99CDE344311D1FD1110 202140F20FDDBCCCFE354420112E1F2F 01425112212FDCAAD03013422120FF01 0014333212411FCDCF11213041400FF0 204355243125410FDE0003255340FE1F 10146653422441212035252657510FEF 100446353322234022766764565F00F0 121234362342334325777656342FEFF1 FF0325721230002122466654311FD1FF 1F1F3335513411343555334101F00121 01213212141001454564444010FEFEFF E0002F011F0211145553230EF0F101EF EEF11F1FEDF0E01324121F1DEFDEEF2F F11FEF00FE12EF0012121EF01001E00F 0FE12EF11FEF10E00FFF00F01F120FF1 F2F11F200E021F112F201F122F000F2F 1012F2FEF10102F012EFE1E0E0012F11 0FEF0E020112F2101F1EEFE000201FFF E1111E1FFEFF0E0EDF011F00EFE202EF 2101F1F00ED0EDFECDFF1FE100202EFF F1001EFEFEFE0021F2EE0E0FFE11111F F0E00FEE0124241202110F00F00EFE00 02E110F1FF101221012F343010E102FF F0011030F210EFEEE03000201FFEFF10 000222111F1FEDBB0EF11333132F0E01 10011310101EDBCD0F14521123FF10F1 110104332021EDDEE13435242300001F F00E1421124300CEF043224321F00122 2ED0F141213000EDD231431F22F321EF 2F1014210021FFC9F1033200E1FEF001 E1F3324112F0F0CAEE20EF00FDD0FE11 F211001301011EDDB01EDCCCFBED0F20 10112010FE1221EC000FFCECEFE0000E 0001F0EFFE1232F2F10FFDDEDDFEE0F0 F1202D1EFE0F21123141F12EEFF11101 F02100D0EEFF0210337442FFEE11F2E0 0211121E01E123205555543F00EEFF10 F122000E10FF10021453440EEE1DEFFF 122040120DEDDF232043221FDFEEEF11 1E1020211F00FE021F202F111EFFE00F 1FFF33220E001FFFF4122F0F101E0011 0FFE200F00FFE3234221FE01EFFEF001 E01F000120212322642110E0EFDF0120 F1E11F0021111144424111FDECEDE11E EFE1111F01E0F13110FFF0CCF0FF202F FF1E2EEFFDDEE0EEEDBECCDEF01EFEE1 2212F0E10D1E100FF0EF10FFFE01FF20 E0100F0EF2F1100F1F2110F1F202FF11 F1111F11FF122FF1110E2FFF1F1110F1 EFFF01110121F101022F12F201020F12 2000E0EF0F1FFFFEF1FF1F1FFF0100E0 E011101EED0DEEEDEF0FEFF1E1FF1011 F2102F12011D0101FEFFFE1E2E0EEF0F 10FFF13011110E021EEDCFCF01FF1111 0012002220323001E1EDCBCDF1FE01FF FF1100213301212F0FECABD0FFF1F101 02DE1222132234122FCDCCACEFE11FE1 0010E1FFE10F2011320CDAACED1EEF01 1EF0F0EEF0FEF212220DDDBDD0FF0010 1FEDEF10EFFFEE2311111CFEDF0F1F0F 21FEE020F00EF2125445210FECDE1110 0FFF2F1F13F022575335311DFFDDFEEF EFE10200121025777754332EEFCDE1FE 2F0FE0EE0FF1035777342FF0CFD01F1E EFEEFFDCEE1E143577411EEFDEF0F20E 01FDFDFDDCC0F02647421DEDEEDF0FF2 1FEFFBEABCED12224120ECDEDFE00E20 F1F0CEDDDBB0E1010F1E0FDDCD0FF201 F0FDDEDDCDED002F0FEDFE0EDEDE1210 211DFEBCDBC11131FCFDF0EDEDFD0F2F 10FDFDCFDBEFF031EDDE0EF01FFEE001 F0FFECDEDFCF1F01EFEB0FE1121E112F 2120D0CEDBBCF111EFE0E1F21031F12F 21FFEFCEEEEEF03121F2212F0321F100 F011F000EFEE021022020231220F1FE0 0F1E1E100111F04301244332101EE0E2 122FFFF1101121F11E10FF2FFEF00F0F 01110010F2FF2FEDD0EEDEF00EEFF02F E1102E1E0E1F001101EFF0EF110010F0 0EEF0F000FE12FF10101FFF00210F020 110F0021202EFF0F02FFEF01FF210120 11F0FFF00FEE2EF10010EE101FF1F1F1 00110FEF0EDFFCECFDEFDEE1F1E0100F F0001FFDDD0FCFCDCCDCE0EF0F12F1FF F12011FDDFFEFF0CDFFD0FF021122F1F FEEF01FEEDE0DEDEDEFED01220E110F0 E201110E0FF1000FE10FFE11203F1FEF 02101110245342322011212113000F10 F10F00F11274625442112F0F0110111F 10F031343457642431101F211F32F010 1200030324777534301E0DF0E1022F02 0E2F0F21254777544430FDF1F1FF022F 0FF10F01F236774333230EFF1E012011 22EEE00D21254511345551310FF011F1 120DDFFF1215312F2255463133330FF1 0E0D0EF1F2322DEFE127667555332FF0 1101221246763EABCE36677766541110 FEFF135366761DBBCCE336576562F1F0 1F0FF224367641EAACCE3235555312EF 1FD00211545622EAB99DC21334430211 2FEEDFE200443210B9A9ACE242421FF1 F0DEE00D01022201CD9AACE132520221 0FEDDEE0F00E0101DEBBABCE13221020 F1F00DF00EFE10110DCDDCD101222111 101EDDF1EDEEE1FE0E01EFFE21F00F01 01110E000FEF1110E13013F120030FEF 00F0110EEFD1FF11F4354133110FFF0F 0211FEE11FF000212243633423000FE2 F0F0023F00F201225563443321310FE1 01101F202100552664775662401FF102 21F1F210E11010313341120F00F1F000 200211011FFEFFF10FE0002F100E2FF1 0F01E001111F1FF1E011102EF12F0F10 10EF1F2F21121EEE021F112FF0F1121E 0100211F201314433013FF20F1221100 2F2FF0034555653332323010F1FF02F1 02002113445655454452113FFF21FE10 EE12225455545223214361022FF2E102 F02142424432202112321220F20F10EF 1012340112EEF01F0322122F210F1201 21462101FF0DFEF1EF2F1F0F1FEEE102 0066400010EEDEEEF0EEEFF01F00010F 11763FF0EDBEDFF111DF0FE00EEFF022 F03301DDDACCDE232E0D0E000000F0FF 1F430BCB9BBCCF145421DFE0FDEDE1E1 221FDBABABBCB23577222FCCEFEFE0FF F211CCCAC9DCE015775641EDEDDD1F21 210EDCCEFCCCE046777763F1DEE0E011 020E010EF0FE0116776676210EDD1FF2 022101F110FF01454743610101010F0F 1F030120102FE034442302E201F111EF EF211233121F111541EE00E223EF1F2F 02304335333430212FCDCEF210102F21 1002154334644244201FFE045342110F 00022456447756466533213552343101 2F203411447667747655353534021212 211112222576675455446664320132FF 01F13212333743233222533101020101 F21E000122422200F323110221111F01 E02E20E12120E11F1EE0F1F10F130111 2F101EEF1D10FF1F10EEEE0F00F00100 F02120E1EDEDDCCFFFF00EF0E00102E2 11F0F0EFF00EDBCDECDECFDF0110FEF0 0E1020E02EE1001E1F1F0010220E11F1;
